#ifndef RELU_MODEL
#define RELU_MODEL
#define MODEL_LENGTH 1696
unsigned char input_data[1*2*80*16*2] = {0};
unsigned char model_data[1696] = {
    0x24, 0x00, 0x00, 0x00, 0x54, 0x46, 0x4c, 0x33, 0x00, 0x00, 0x00, 0x00,
    0x00, 0x00, 0x00, 0x00, 0x00, 0x00, 0x12, 0x00, 0x1c, 0x00, 0x18, 0x00,
    0x14, 0x00, 0x10, 0x00, 0x0c, 0x00, 0x08, 0x00, 0x00, 0x00, 0x04, 0x00,
    0x12, 0x00, 0x00, 0x00, 0x18, 0x00, 0x00, 0x00, 0x70, 0x00, 0x00, 0x00,
    0x24, 0x06, 0x00, 0x00, 0x14, 0x02, 0x00, 0x00, 0x38, 0x06, 0x00, 0x00,
    0x03, 0x00, 0x00, 0x00, 0x02, 0x00, 0x00, 0x00, 0x38, 0x00, 0x00, 0x00,
    0x04, 0x00, 0x00, 0x00, 0xd8, 0xff, 0xff, 0xff, 0x04, 0x00, 0x00, 0x00,
    0x04, 0x00, 0x00, 0x00, 0x17, 0x00, 0x00, 0x00, 0x4f, 0x66, 0x66, 0x6c,
    0x69, 0x6e, 0x65, 0x4d, 0x65, 0x6d, 0x6f, 0x72, 0x79, 0x41, 0x6c, 0x6c,
    0x6f, 0x63, 0x61, 0x74, 0x69, 0x6f, 0x6e, 0x00, 0x08, 0x00, 0x0c, 0x00,
    0x08, 0x00, 0x04, 0x00, 0x08, 0x00, 0x00, 0x00, 0x03, 0x00, 0x00, 0x00,
    0x04, 0x00, 0x00, 0x00, 0x0c, 0x00, 0x00, 0x00, 0x76, 0x65, 0x6c, 0x61,
    0x5f, 0x76, 0x65, 0x72, 0x73, 0x69, 0x6f, 0x6e, 0x00, 0x00, 0x00, 0x00,
    0x05, 0x00, 0x00, 0x00, 0xa4, 0x01, 0x00, 0x00, 0x80, 0x00, 0x00, 0x00,
    0x5c, 0x00, 0x00, 0x00, 0x38, 0x00, 0x00, 0x00, 0x04, 0x00, 0x00, 0x00,
    0x96, 0xff, 0xff, 0xff, 0x04, 0x00, 0x00, 0x00, 0x24, 0x00, 0x00, 0x00,
    0x00, 0x00, 0x00, 0x00, 0x01, 0x00, 0x00, 0x00, 0x06, 0x00, 0x00, 0x00,
    0xff, 0xff, 0xff, 0xff, 0xff, 0xff, 0xff, 0xff, 0x00, 0x00, 0x00, 0x00,
    0x00, 0x00, 0x00, 0x00, 0x00, 0x00, 0x00, 0x00, 0x00, 0x00, 0x00, 0x00,
    0xc6, 0xff, 0xff, 0xff, 0x04, 0x00, 0x00, 0x00, 0x06, 0x00, 0x00, 0x00,
    0x33, 0x2e, 0x31, 0x32, 0x2e, 0x30, 0x00, 0x00, 0x00, 0x00, 0x00, 0x00,
    0x00, 0x00, 0x00, 0x00, 0x00, 0x00, 0x00, 0x00, 0xe6, 0xff, 0xff, 0xff,
    0x04, 0x00, 0x00, 0x00, 0x00, 0x00, 0x00, 0x00, 0x00, 0x00, 0x00, 0x00,
    0x00, 0x00, 0x00, 0x00, 0x00, 0x00, 0x00, 0x00, 0x00, 0x00, 0x06, 0x00,
    0x08, 0x00, 0x04, 0x00, 0x06, 0x00, 0x00, 0x00, 0x04, 0x00, 0x00, 0x00,
    0x10, 0x01, 0x00, 0x00, 0x43, 0x4f, 0x50, 0x31, 0x01, 0x00, 0x10, 0x00,
    0x08, 0x30, 0x00, 0x10, 0x00, 0x00, 0x06, 0x10, 0x05, 0x00, 0x00, 0x00,
    0x05, 0x00, 0x00, 0x00, 0x05, 0x00, 0x00, 0x00, 0x02, 0x00, 0x3c, 0x00,
    0x23, 0x01, 0x00, 0x00, 0x24, 0x40, 0x20, 0x00, 0x00, 0xcd, 0xcc, 0x4c,
    0x0f, 0x01, 0x01, 0x00, 0x00, 0x40, 0x00, 0x00, 0x00, 0x00, 0x00, 0x00,
    0x01, 0x40, 0x00, 0x00, 0x00, 0x00, 0x00, 0x00, 0x02, 0x40, 0x00, 0x00,
    0x00, 0x00, 0x00, 0x00, 0x03, 0x40, 0x00, 0x00, 0x00, 0x00, 0x00, 0x00,
    0x0b, 0x01, 0x01, 0x00, 0x0c, 0x01, 0x01, 0x00, 0x0a, 0x01, 0x4f, 0x00,
    0x04, 0x01, 0x0f, 0x00, 0x06, 0x40, 0x00, 0x00, 0x02, 0x00, 0x00, 0x00,
    0x05, 0x40, 0x00, 0x00, 0x00, 0x0a, 0x00, 0x00, 0x04, 0x40, 0x00, 0x00,
    0x20, 0x00, 0x00, 0x00, 0x09, 0x01, 0x00, 0x00, 0x05, 0x01, 0x05, 0x00,
    0x07, 0x01, 0x00, 0x00, 0x1f, 0x01, 0x01, 0x00, 0x10, 0x40, 0x00, 0x00,
    0x00, 0x00, 0x00, 0x00, 0x11, 0x40, 0x00, 0x00, 0x00, 0x00, 0x00, 0x00,
    0x12, 0x40, 0x00, 0x00, 0x00, 0x00, 0x00, 0x00, 0x13, 0x40, 0x00, 0x00,
    0x00, 0x00, 0x00, 0x00, 0x1b, 0x01, 0x01, 0x00, 0x1c, 0x01, 0x01, 0x00,
    0x1a, 0x01, 0x4f, 0x00, 0x12, 0x01, 0x01, 0x00, 0x11, 0x01, 0x4f, 0x00,
    0x13, 0x01, 0x0f, 0x00, 0x16, 0x40, 0x00, 0x00, 0x02, 0x00, 0x00, 0x00,
    0x15, 0x40, 0x00, 0x00, 0x00, 0x0a, 0x00, 0x00, 0x14, 0x40, 0x00, 0x00,
    0x20, 0x00, 0x00, 0x00, 0x18, 0x01, 0x00, 0x00, 0x14, 0x01, 0x03, 0x01,
    0x25, 0x01, 0x00, 0x00, 0x26, 0x01, 0x00, 0x80, 0x27, 0x01, 0xff, 0x7f,
    0x16, 0x01, 0x01, 0x00, 0x15, 0x01, 0x3f, 0x00, 0x17, 0x01, 0x0f, 0x00,
    0x0d, 0x01, 0x2e, 0x00, 0x2d, 0x01, 0x2e, 0x00, 0x24, 0x01, 0x01, 0x00,
    0x2f, 0x01, 0x00, 0x00, 0x06, 0x00, 0x05, 0x00, 0x00, 0x00, 0xff, 0xff,
    0x04, 0x00, 0x04, 0x00, 0x04, 0x00, 0x00, 0x00, 0x01, 0x00, 0x00, 0x00,
    0x14, 0x00, 0x00, 0x00, 0x00, 0x00, 0x0e, 0x00, 0x18, 0x00, 0x14, 0x00,
    0x10, 0x00, 0x0c, 0x00, 0x08, 0x00, 0x04, 0x00, 0x0e, 0x00, 0x00, 0x00,
    0xe8, 0x03, 0x00, 0x00, 0x10, 0x00, 0x00, 0x00, 0x74, 0x00, 0x00, 0x00,
    0x78, 0x00, 0x00, 0x00, 0x7c, 0x00, 0x00, 0x00, 0x01, 0x00, 0x00, 0x00,
    0x1c, 0x00, 0x00, 0x00, 0x00, 0x00, 0x16, 0x00, 0x18, 0x00, 0x00, 0x00,
    0x14, 0x00, 0x10, 0x00, 0x00, 0x00, 0x00, 0x00, 0x08, 0x00, 0x00, 0x00,
    0x04, 0x00, 0x0c, 0x00, 0x16, 0x00, 0x00, 0x00, 0x14, 0x00, 0x00, 0x00,
    0x14, 0x00, 0x00, 0x00, 0x18, 0x00, 0x00, 0x00, 0x18, 0x00, 0x00, 0x00,
    0x1c, 0x00, 0x00, 0x00, 0x00, 0x00, 0x00, 0x00, 0x03, 0x00, 0x00, 0x00,
    0x01, 0x04, 0x01, 0x00, 0x00, 0x00, 0x00, 0x00, 0x01, 0x00, 0x00, 0x00,
    0x05, 0x00, 0x00, 0x00, 0x05, 0x00, 0x00, 0x00, 0x00, 0x00, 0x00, 0x00,
    0x01, 0x00, 0x00, 0x00, 0x02, 0x00, 0x00, 0x00, 0x03, 0x00, 0x00, 0x00,
    0x04, 0x00, 0x00, 0x00, 0x01, 0x00, 0x00, 0x00, 0x05, 0x00, 0x00, 0x00,
    0x01, 0x00, 0x00, 0x00, 0x04, 0x00, 0x00, 0x00, 0x06, 0x00, 0x00, 0x00,
    0x20, 0x03, 0x00, 0x00, 0xe0, 0x02, 0x00, 0x00, 0xac, 0x02, 0x00, 0x00,
    0x68, 0x02, 0x00, 0x00, 0xc4, 0x00, 0x00, 0x00, 0x04, 0x00, 0x00, 0x00,
    0x52, 0xff, 0xff, 0xff, 0x10, 0x00, 0x00, 0x00, 0x44, 0x00, 0x00, 0x00,
    0x00, 0x00, 0x00, 0x07, 0x88, 0x00, 0x00, 0x00, 0x44, 0xff, 0xff, 0xff,
    0x10, 0x00, 0x00, 0x00, 0x18, 0x00, 0x00, 0x00, 0x1c, 0x00, 0x00, 0x00,
    0x20, 0x00, 0x00, 0x00, 0x01, 0x00, 0x00, 0x00, 0x00, 0x00, 0x00, 0x00,
    0x00, 0x00, 0x00, 0x00, 0x01, 0x00, 0x00, 0x00, 0xbc, 0x51, 0x0d, 0x3c,
    0x01, 0x00, 0x00, 0x00, 0xa1, 0x50, 0x8d, 0x43, 0x01, 0x00, 0x00, 0x00,
    0x51, 0x51, 0xa7, 0xc2, 0x44, 0x00, 0x00, 0x00, 0x73, 0x74, 0x72, 0x65,
    0x61, 0x6d, 0x61, 0x62, 0x6c, 0x65, 0x5f, 0x6d, 0x6f, 0x64, 0x65, 0x6c,
    0x5f, 0x31, 0x30, 0x2f, 0x75, 0x6e, 0x65, 0x74, 0x5f, 0x30, 0x2f, 0x65,
    0x6e, 0x63, 0x6f, 0x64, 0x65, 0x72, 0x5f, 0x31, 0x2f, 0x63, 0x6f, 0x6e,
    0x76, 0x32, 0x64, 0x5f, 0x33, 0x78, 0x33, 0x2f, 0x61, 0x63, 0x74, 0x69,
    0x76, 0x61, 0x74, 0x69, 0x6f, 0x6e, 0x2f, 0x4c, 0x65, 0x61, 0x6b, 0x79,
    0x52, 0x65, 0x6c, 0x75, 0x00, 0x00, 0x00, 0x00, 0x04, 0x00, 0x00, 0x00,
    0x01, 0x00, 0x00, 0x00, 0x02, 0x00, 0x00, 0x00, 0x50, 0x00, 0x00, 0x00,
    0x10, 0x00, 0x00, 0x00, 0x00, 0x00, 0x0e, 0x00, 0x14, 0x00, 0x10, 0x00,
    0x0f, 0x00, 0x00, 0x00, 0x08, 0x00, 0x04, 0x00, 0x0e, 0x00, 0x00, 0x00,
    0x1c, 0x00, 0x00, 0x00, 0x50, 0x00, 0x00, 0x00, 0x00, 0x00, 0x00, 0x07,
    0x7c, 0x01, 0x00, 0x00, 0x0c, 0x00, 0x14, 0x00, 0x10, 0x00, 0x0c, 0x00,
    0x08, 0x00, 0x04, 0x00, 0x0c, 0x00, 0x00, 0x00, 0x10, 0x00, 0x00, 0x00,
    0x18, 0x00, 0x00, 0x00, 0x1c, 0x00, 0x00, 0x00, 0x20, 0x00, 0x00, 0x00,
    0x01, 0x00, 0x00, 0x00, 0x00, 0x00, 0x00, 0x00, 0x00, 0x00, 0x00, 0x00,
    0x01, 0x00, 0x00, 0x00, 0xbc, 0x51, 0x0d, 0x3c, 0x01, 0x00, 0x00, 0x00,
    0xa1, 0x50, 0x8d, 0x43, 0x01, 0x00, 0x00, 0x00, 0x6e, 0x6e, 0x8b, 0xc3,
    0x2d, 0x01, 0x00, 0x00, 0x73, 0x74, 0x72, 0x65, 0x61, 0x6d, 0x61, 0x62,
    0x6c, 0x65, 0x5f, 0x6d, 0x6f, 0x64, 0x65, 0x6c, 0x5f, 0x31, 0x30, 0x2f,
    0x75, 0x6e, 0x65, 0x74, 0x5f, 0x30, 0x2f, 0x65, 0x6e, 0x63, 0x6f, 0x64,
    0x65, 0x72, 0x5f, 0x30, 0x2f, 0x63, 0x6f, 0x6e, 0x76, 0x32, 0x64, 0x5f,
    0x33, 0x78, 0x34, 0x5f, 0x61, 0x2f, 0x63, 0x6f, 0x6e, 0x76, 0x2f, 0x63,
    0x6f, 0x6e, 0x76, 0x32, 0x64, 0x5f, 0x31, 0x39, 0x32, 0x2f, 0x42, 0x69,
    0x61, 0x73, 0x41, 0x64, 0x64, 0x3b, 0x73, 0x74, 0x72, 0x65, 0x61, 0x6d,
    0x61, 0x62, 0x6c, 0x65, 0x5f, 0x6d, 0x6f, 0x64, 0x65, 0x6c, 0x5f, 0x31,
    0x30, 0x2f, 0x75, 0x6e, 0x65, 0x74, 0x5f, 0x30, 0x2f, 0x64, 0x65, 0x63,
    0x6f, 0x64, 0x65, 0x72, 0x5f, 0x31, 0x2f, 0x73, 0x68, 0x6f, 0x72, 0x74,
    0x63, 0x75, 0x74, 0x2f, 0x63, 0x6f, 0x6e, 0x76, 0x31, 0x78, 0x31, 0x2f,
    0x63, 0x6f, 0x6e, 0x76, 0x2f, 0x43, 0x6f, 0x6e, 0x76, 0x32, 0x44, 0x3b,
    0x73, 0x74, 0x72, 0x65, 0x61, 0x6d, 0x61, 0x62, 0x6c, 0x65, 0x5f, 0x6d,
    0x6f, 0x64, 0x65, 0x6c, 0x5f, 0x31, 0x30, 0x2f, 0x75, 0x6e, 0x65, 0x74,
    0x5f, 0x30, 0x2f, 0x65, 0x6e, 0x63, 0x6f, 0x64, 0x65, 0x72, 0x5f, 0x30,
    0x2f, 0x63, 0x6f, 0x6e, 0x76, 0x32, 0x64, 0x5f, 0x33, 0x78, 0x34, 0x5f,
    0x61, 0x2f, 0x63, 0x6f, 0x6e, 0x76, 0x2f, 0x63, 0x6f, 0x6e, 0x76, 0x32,
    0x64, 0x5f, 0x31, 0x39, 0x32, 0x2f, 0x43, 0x6f, 0x6e, 0x76, 0x32, 0x44,
    0x3b, 0x73, 0x74, 0x72, 0x65, 0x61, 0x6d, 0x61, 0x62, 0x6c, 0x65, 0x5f,
    0x6d, 0x6f, 0x64, 0x65, 0x6c, 0x5f, 0x31, 0x30, 0x2f, 0x75, 0x6e, 0x65,
    0x74, 0x5f, 0x30, 0x2f, 0x65, 0x6e, 0x63, 0x6f, 0x64, 0x65, 0x72, 0x5f,
    0x30, 0x2f, 0x63, 0x6f, 0x6e, 0x76, 0x32, 0x64, 0x5f, 0x33, 0x78, 0x34,
    0x5f, 0x61, 0x2f, 0x63, 0x6f, 0x6e, 0x76, 0x2f, 0x63, 0x6f, 0x6e, 0x76,
    0x32, 0x64, 0x5f, 0x31, 0x39, 0x32, 0x2f, 0x42, 0x69, 0x61, 0x73, 0x41,
    0x64, 0x64, 0x2f, 0x52, 0x65, 0x61, 0x64, 0x56, 0x61, 0x72, 0x69, 0x61,
    0x62, 0x6c, 0x65, 0x4f, 0x70, 0x00, 0x00, 0x00, 0x04, 0x00, 0x00, 0x00,
    0x01, 0x00, 0x00, 0x00, 0x02, 0x00, 0x00, 0x00, 0x50, 0x00, 0x00, 0x00,
    0x10, 0x00, 0x00, 0x00, 0xcc, 0xff, 0xff, 0xff, 0x0c, 0x00, 0x00, 0x00,
    0x00, 0x00, 0x00, 0x03, 0x20, 0x00, 0x00, 0x00, 0x15, 0x00, 0x00, 0x00,
    0x5f, 0x73, 0x70, 0x6c, 0x69, 0x74, 0x5f, 0x31, 0x5f, 0x73, 0x63, 0x72,
    0x61, 0x74, 0x63, 0x68, 0x5f, 0x66, 0x61, 0x73, 0x74, 0x00, 0x00, 0x00,
    0x01, 0x00, 0x00, 0x00, 0x00, 0x00, 0x00, 0x00, 0x0c, 0x00, 0x10, 0x00,
    0x0c, 0x00, 0x0b, 0x00, 0x00, 0x00, 0x04, 0x00, 0x0c, 0x00, 0x00, 0x00,
    0x0c, 0x00, 0x00, 0x00, 0x00, 0x00, 0x00, 0x03, 0x1c, 0x00, 0x00, 0x00,
    0x10, 0x00, 0x00, 0x00, 0x5f, 0x73, 0x70, 0x6c, 0x69, 0x74, 0x5f, 0x31,
    0x5f, 0x73, 0x63, 0x72, 0x61, 0x74, 0x63, 0x68, 0x00, 0x00, 0x00, 0x00,
    0x01, 0x00, 0x00, 0x00, 0x00, 0x14, 0x00, 0x00, 0xd0, 0xff, 0xff, 0xff,
    0x10, 0x00, 0x00, 0x00, 0x02, 0x00, 0x00, 0x00, 0x00, 0x00, 0x00, 0x03,
    0x18, 0x00, 0x00, 0x00, 0x0e, 0x00, 0x00, 0x00, 0x5f, 0x73, 0x70, 0x6c,
    0x69, 0x74, 0x5f, 0x31, 0x5f, 0x66, 0x6c, 0x61, 0x73, 0x68, 0x00, 0x00,
    0x01, 0x00, 0x00, 0x00, 0x00, 0x00, 0x00, 0x00, 0x0c, 0x00, 0x14, 0x00,
    0x10, 0x00, 0x0f, 0x00, 0x08, 0x00, 0x04, 0x00, 0x0c, 0x00, 0x00, 0x00,
    0x10, 0x00, 0x00, 0x00, 0x01, 0x00, 0x00, 0x00, 0x00, 0x00, 0x00, 0x03,
    0x20, 0x00, 0x00, 0x00, 0x17, 0x00, 0x00, 0x00, 0x5f, 0x73, 0x70, 0x6c,
    0x69, 0x74, 0x5f, 0x31, 0x5f, 0x63, 0x6f, 0x6d, 0x6d, 0x61, 0x6e, 0x64,
    0x5f, 0x73, 0x74, 0x72, 0x65, 0x61, 0x6d, 0x00, 0x01, 0x00, 0x00, 0x00,
    0x10, 0x01, 0x00, 0x00, 0x00, 0x00, 0x00, 0x00, 0x00, 0x00, 0x00, 0x00,
    0x15, 0x00, 0x00, 0x00, 0x56, 0x65, 0x6c, 0x61, 0x20, 0x33, 0x2e, 0x31,
    0x32, 0x2e, 0x30, 0x20, 0x4f, 0x70, 0x74, 0x69, 0x6d, 0x69, 0x73, 0x65,
    0x64, 0x00, 0x00, 0x00, 0x01, 0x00, 0x00, 0x00, 0x10, 0x00, 0x00, 0x00,
    0x0c, 0x00, 0x10, 0x00, 0x0f, 0x00, 0x04, 0x00, 0x00, 0x00, 0x08, 0x00,
    0x0c, 0x00, 0x00, 0x00, 0x0c, 0x00, 0x00, 0x00, 0x20, 0x00, 0x00, 0x00,
    0x00, 0x00, 0x00, 0x20, 0x07, 0x00, 0x00, 0x00, 0x65, 0x74, 0x68, 0x6f,
    0x73, 0x2d, 0x75, 0x00
  };
  unsigned int leaky_relu2_vela_tflite_len = 1696;
 #endif 