#ifndef REPLAY_TEMPLATES_H
#define REPLAY_TEMPLATES_H

#include <stdint.h>
#include <stdbool.h>

#define MAX_REG_OP_RECORDS 1024

typedef enum {
    REG_OP_READ,
    REG_OP_WRITE
} reg_op_type_t;

typedef struct {
    reg_op_type_t op_type;
    volatile void *reg_address;
    uint32_t reg_value;
    uint32_t op_order;
} reg_op_record_t;
#define INIT_VERIFICATION_START 1-1
#define INIT_VERIFICATION_END 23-1
#define RUN_STREAM_COMMAND_START 24-1
#define RUN_STREAM_COMMAND_END 44-1
#define INTERRUPT_HANDLING_START 45-1
#define INTERRUPT_HANDLING_END  48-1
#define WAIT 12-1
//record register access
static reg_op_record_t register_access_records[] = {
    {REG_OP_READ, (volatile void *)0x4a900028, 0x10003008, 1},//init & verification
    {REG_OP_WRITE, (volatile void *)0x4a90000c, 0x00000002, 2},
    {REG_OP_READ, (volatile void *)0x4a900004, 0x00000000, 3},
    {REG_OP_READ, (volatile void *)0x4a900024, 0x00000002, 4},
    {REG_OP_WRITE, (volatile void *)0x4a90001c, 0x00000002, 5},
    {REG_OP_WRITE, (volatile void *)0x4a90003c, 0x0000555f, 6},
    {REG_OP_WRITE, (volatile void *)0x4a900040, 0x1f3f00b0, 7},
    {REG_OP_WRITE, (volatile void *)0x4a900044, 0x1f3f00b0, 8},
    {REG_OP_WRITE, (volatile void *)0x4a900048, 0x1f3f00b0, 9},
    {REG_OP_WRITE, (volatile void *)0x4a90004c, 0x1f3f00b0, 10},
    {REG_OP_WRITE, (volatile void *)0x4a90000c, 0x00000002, 11},
    {REG_OP_READ, (volatile void *)0x4a900004, 0x00000000, 12},
    {REG_OP_READ, (volatile void *)0x4a900024, 0x00000002, 13},
    {REG_OP_WRITE, (volatile void *)0x4a90001c, 0x00000002, 14},
    {REG_OP_WRITE, (volatile void *)0x4a90003c, 0x0000555f, 15},
    {REG_OP_WRITE, (volatile void *)0x4a900040, 0x1f3f00b0, 16},
    {REG_OP_WRITE, (volatile void *)0x4a900044, 0x1f3f00b0, 17},
    {REG_OP_WRITE, (volatile void *)0x4a900048, 0x1f3f00b0, 18},
    {REG_OP_WRITE, (volatile void *)0x4a90004c, 0x1f3f00b0, 19},
    {REG_OP_READ, (volatile void *)0x4a900008, 0x0000000c, 20},
    {REG_OP_WRITE, (volatile void *)0x4a900008, 0x00000000, 21},
    {REG_OP_READ, (volatile void *)0x4a900028, 0x10003008, 22},
    {REG_OP_READ, (volatile void *)0x4a900000, 0x10066001, 23},
    {REG_OP_READ, (volatile void *)0x20480150, 0x00000000, 24},//run command stream
    {REG_OP_WRITE, (volatile void *)0x4a900010, 0x20480204, 25},
    {REG_OP_WRITE, (volatile void *)0x4a900014, 0x00000000, 26},
    {REG_OP_WRITE, (volatile void *)0x4a900020, 0x0000012c, 27},
    {REG_OP_READ, (volatile void *)0x20480110, 0x00000000, 28},
    {REG_OP_WRITE, (volatile void *)0x4a900080, 0x20480114, 29},
    {REG_OP_WRITE, (volatile void *)0x4a900084, 0x00000000, 30},
    {REG_OP_READ, (volatile void *)0x20484000, 0x00000000, 31},
    {REG_OP_WRITE, (volatile void *)0x4a900088, 0x20484004, 32},
    {REG_OP_WRITE, (volatile void *)0x4a90008c, 0x00000000, 33},
    {REG_OP_READ, (volatile void *)0x20480000, 0x00000000, 34},
    {REG_OP_WRITE, (volatile void *)0x4a900090, 0x20480004, 35},
    {REG_OP_WRITE, (volatile void *)0x4a900094, 0x00000000, 36},
    {REG_OP_READ, (volatile void *)0x20484000, 0x00000000, 37},
    {REG_OP_WRITE, (volatile void *)0x4a900098, 0x20484054, 38},
    {REG_OP_WRITE, (volatile void *)0x4a90009c, 0x00000000, 39},
    {REG_OP_READ, (volatile void *)0x20489300, 0x00000000, 40},
    {REG_OP_WRITE, (volatile void *)0x4a9000a0, 0x20484004, 41},
    {REG_OP_WRITE, (volatile void *)0x4a9000a4, 0x00000000, 42},
    {REG_OP_READ, (volatile void *)0x4a900008, 0x00000000, 43},
    {REG_OP_WRITE, (volatile void *)0x4a900008, 0x00000001, 44},// last operation of run command stream
    {REG_OP_READ, (volatile void *)0x4a900008, 0x00000000, 45},// interrupt handling
    {REG_OP_WRITE, (volatile void *)0x4a900008, 0x00000002, 46},
    {REG_OP_READ, (volatile void *)0x4a900004, 0xffff0000, 47},
    {REG_OP_READ, (volatile void *)0x4a900018, 0x0000012c, 48},
};
//record data
unsigned char op_24_data[268] = {0x23, 0x01, 0x00, 0x00, 0x0f, 0x01, 0x01, 0x00, 0x00, 0x40, 0x00, 0x00, 0xc0, 0x14, 0x00, 0x00, 0x01, 0x40, 0x00, 0x00, 0x00, 0x00, 0x00, 0x00, 0x02, 0x40, 0x00, 0x00, 0x00, 0x00, 0x00, 0x00, 0x03, 0x40, 0x00, 0x00, 0x00, 0x00, 0x00, 0x00, 0x0b, 0x01, 0x05, 0x00, 0x0c, 0x01, 0x05, 0x00, 0x0a, 0x01, 0xa5, 0x00, 0x04, 0x01, 0x07, 0x00, 0x06, 0x40, 0x00, 0x00, 0x02, 0x00, 0x00, 0x00, 0x05, 0x40, 0x00, 0x00, 0x60, 0x0a, 0x00, 0x00, 0x04, 0x40, 0x00, 0x00, 0x10, 0x00, 0x00, 0x00, 0x09, 0x01, 0x00, 0x00, 0x05, 0x01, 0x05, 0x00, 0x07, 0x01, 0x00, 0x00, 0x00, 0x01, 0x00, 0x00, 0x01, 0x01, 0x00, 0x00, 0x03, 0x01, 0x00, 0x00, 0x02, 0x01, 0x00, 0x00, 0x1f, 0x01, 0x01, 0x00, 0x10, 0x40, 0x00, 0x00, 0x00, 0x53, 0x00, 0x00, 0x11, 0x40, 0x00, 0x00, 0x00, 0x00, 0x00, 0x00, 0x12, 0x40, 0x00, 0x00, 0x00, 0x00, 0x00, 0x00, 0x13, 0x40, 0x00, 0x00, 0x00, 0x00, 0x00, 0x00, 0x1b, 0x01, 0x05, 0x00, 0x1c, 0x01, 0x05, 0x00, 0x1a, 0x01, 0xa5, 0x00, 0x12, 0x01, 0x05, 0x00, 0x11, 0x01, 0xa5, 0x00, 0x13, 0x01, 0x07, 0x00, 0x16, 0x40, 0x00, 0x00, 0x02, 0x00, 0x00, 0x00, 0x15, 0x40, 0x00, 0x00, 0x60, 0x0a, 0x00, 0x00, 0x14, 0x40, 0x00, 0x00, 0x10, 0x00, 0x00, 0x00, 0x18, 0x01, 0x00, 0x00, 0x14, 0x01, 0x03, 0x01, 0x21, 0x01, 0x00, 0x00, 0x20, 0x01, 0x00, 0x00, 0x22, 0x01, 0x00, 0x00, 0x25, 0x01, 0x00, 0x00, 0x26, 0x01, 0x00, 0x80, 0x27, 0x01, 0xff, 0x7f, 0x16, 0x01, 0x01, 0x00, 0x15, 0x01, 0x11, 0x00, 0x17, 0x01, 0x07, 0x00, 0x0d, 0x01, 0x0a, 0x00, 0x2d, 0x01, 0x1e, 0x00, 0x24, 0x01, 0x00, 0x00, 0x24, 0x40, 0x1f, 0x00, 0x01, 0x00, 0x00, 0x80, 0x2f, 0x01, 0x00, 0x00, 0x05, 0x00, 0x01, 0x00, 0x00, 0x00, 0xff, 0xff};
unsigned char op_28_model_record_data[1632] = {0x00, 0x00, 0x00, 0x00, 0x00, 0x00, 0x00, 0x00, 0x00, 0x00, 0x00, 0x00, 0x00, 0x00, 0x00, 0x00, 0x00, 0x00, 0x00, 0x00, 0x00, 0x00, 0x00, 0x00, 0x00, 0x00, 0x00, 0x00, 0x00, 0x00, 0x00, 0x00, 0x00, 0x00, 0x00, 0x00, 0x00, 0x00, 0x00, 0x00, 0x00, 0x00, 0x00, 0x00, 0x00, 0x00, 0x00, 0x00, 0x00, 0x00, 0x00, 0x00, 0x00, 0x00, 0x00, 0x00, 0x00, 0x00, 0x00, 0x00, 0x00, 0x00, 0x00, 0x00, 0x00, 0x00, 0x00, 0x00, 0x00, 0x00, 0x00, 0x00, 0x00, 0x00, 0x00, 0x00, 0x00, 0x00, 0x00, 0x00, 0x00, 0x00, 0x00, 0x00, 0x00, 0x00, 0x00, 0x00, 0x00, 0x00, 0x00, 0x00, 0x00, 0x00, 0x00, 0x00, 0x00, 0x00, 0x00, 0x00, 0x00, 0x00, 0x00, 0x00, 0x00, 0x00, 0x00, 0x00, 0x00, 0x00, 0x06, 0x00, 0x08, 0x00, 0x04, 0x00, 0x06, 0x00, 0x00, 0x00, 0x04, 0x00, 0x00, 0x00, 0x60, 0x01, 0x00, 0x00, 0x43, 0x4f, 0x50, 0x31, 0x01, 0x00, 0x10, 0x00, 0x08, 0x30, 0x00, 0x10, 0x00, 0x00, 0x06, 0x10, 0x05, 0x00, 0x00, 0x00, 0x05, 0x00, 0x00, 0x00, 0x05, 0x00, 0x00, 0x00, 0x02, 0x00, 0x50, 0x00, 0x23, 0x01, 0x00, 0x00, 0x0f, 0x01, 0x01, 0x00, 0x00, 0x40, 0x00, 0x00, 0x00, 0x00, 0x00, 0x00, 0x01, 0x40, 0x00, 0x00, 0x00, 0x00, 0x00, 0x00, 0x02, 0x40, 0x00, 0x00, 0x00, 0x00, 0x00, 0x00, 0x03, 0x40, 0x00, 0x00, 0x00, 0x00, 0x00, 0x00, 0x0b, 0x01, 0x01, 0x00, 0x0c, 0x01, 0x01, 0x00, 0x0a, 0x01, 0x9f, 0x00, 0x04, 0x01, 0x07, 0x00, 0x06, 0x40, 0x00, 0x00, 0x02, 0x00, 0x00, 0x00, 0x05, 0x40, 0x00, 0x00, 0x00, 0x0a, 0x00, 0x00, 0x04, 0x40, 0x00, 0x00, 0x10, 0x00, 0x00, 0x00, 0x09, 0x01, 0x00, 0x00, 0x05, 0x01, 0x05, 0x00, 0x07, 0x01, 0x00, 0x00, 0x00, 0x01, 0x00, 0x00, 0x01, 0x01, 0x00, 0x00, 0x03, 0x01, 0x00, 0x00, 0x02, 0x01, 0x00, 0x00, 0x1f, 0x01, 0x01, 0x00, 0x10, 0x40, 0x00, 0x00, 0x30, 0x14, 0x00, 0x00, 0x11, 0x40, 0x00, 0x00, 0x00, 0x00, 0x00, 0x00, 0x12, 0x40, 0x00, 0x00, 0x00, 0x00, 0x00, 0x00, 0x13, 0x40, 0x00, 0x00, 0x00, 0x00, 0x00, 0x00, 0x1b, 0x01, 0x01, 0x00, 0x1c, 0x01, 0x01, 0x00, 0x1a, 0x01, 0x9f, 0x00, 0x12, 0x01, 0x01, 0x00, 0x11, 0x01, 0x9f, 0x00, 0x13, 0x01, 0x07, 0x00, 0x16, 0x40, 0x00, 0x00, 0x02, 0x00, 0x00, 0x00, 0x15, 0x40, 0x00, 0x00, 0x60, 0x0a, 0x00, 0x00, 0x14, 0x40, 0x00, 0x00, 0x10, 0x00, 0x00, 0x00, 0x18, 0x01, 0x00, 0x00, 0x14, 0x01, 0x03, 0x81, 0x21, 0x01, 0x00, 0x00, 0x20, 0x01, 0x00, 0x00, 0x22, 0x01, 0x00, 0x00, 0x25, 0x01, 0x00, 0x00, 0x26, 0x01, 0x00, 0x80, 0x27, 0x01, 0xff, 0x7f, 0x16, 0x01, 0x01, 0x00, 0x15, 0x01, 0x03, 0x00, 0x17, 0x01, 0x07, 0x00, 0x0d, 0x01, 0x0a, 0x00, 0x2d, 0x01, 0x1e, 0x00, 0x24, 0x01, 0x00, 0x00, 0x24, 0x40, 0x1f, 0x00, 0x01, 0x00, 0x00, 0x80, 0x2f, 0x01, 0x00, 0x00, 0x05, 0x00, 0x01, 0x00, 0x0f, 0x01, 0x00, 0x00, 0x0a, 0x01, 0x02, 0x00, 0x05, 0x40, 0x00, 0x00, 0x30, 0x00, 0x00, 0x00, 0x10, 0x40, 0x00, 0x00, 0x00, 0x14, 0x00, 0x00, 0x1a, 0x01, 0x02, 0x00, 0x11, 0x01, 0x02, 0x00, 0x2f, 0x01, 0x03, 0x00, 0x05, 0x00, 0x01, 0x00, 0x10, 0x40, 0x00, 0x00, 0x30, 0x1e, 0x00, 0x00, 0x05, 0x00, 0x01, 0x00, 0x00, 0x00, 0xff, 0xff, 0x00, 0x00, 0x00, 0x00, 0x00, 0x00, 0x00, 0x00, 0x04, 0x00, 0x04, 0x00, 0x04, 0x00, 0x00, 0x00, 0x01, 0x00, 0x00, 0x00, 0x14, 0x00, 0x00, 0x00, 0x00, 0x00, 0x0e, 0x00, 0x18, 0x00, 0x14, 0x00, 0x10, 0x00, 0x0c, 0x00, 0x08, 0x00, 0x04, 0x00, 0x0e, 0x00, 0x00, 0x00, 0xf0, 0x02, 0x00, 0x00, 0x10, 0x00, 0x00, 0x00, 0x74, 0x00, 0x00, 0x00, 0x78, 0x00, 0x00, 0x00, 0x7c, 0x00, 0x00, 0x00, 0x01, 0x00, 0x00, 0x00, 0x1c, 0x00, 0x00, 0x00, 0x00, 0x00, 0x16, 0x00, 0x18, 0x00, 0x00, 0x00, 0x14, 0x00, 0x10, 0x00, 0x00, 0x00, 0x00, 0x00, 0x08, 0x00, 0x00, 0x00, 0x04, 0x00, 0x0c, 0x00, 0x16, 0x00, 0x00, 0x00, 0x14, 0x00, 0x00, 0x00, 0x14, 0x00, 0x00, 0x00, 0x18, 0x00, 0x00, 0x00, 0x18, 0x00, 0x00, 0x00, 0x1c, 0x00, 0x00, 0x00, 0x00, 0x00, 0x00, 0x00, 0x03, 0x00, 0x00, 0x00, 0x01, 0x04, 0x01, 0x00, 0x00, 0x00, 0x00, 0x00, 0x01, 0x00, 0x00, 0x00, 0x05, 0x00, 0x00, 0x00, 0x05, 0x00, 0x00, 0x00, 0x00, 0x00, 0x00, 0x00, 0x01, 0x00, 0x00, 0x00, 0x02, 0x00, 0x00, 0x00, 0x03, 0x00, 0x00, 0x00, 0x04, 0x00, 0x00, 0x00, 0x01, 0x00, 0x00, 0x00, 0x05, 0x00, 0x00, 0x00, 0x01, 0x00, 0x00, 0x00, 0x04, 0x00, 0x00, 0x00, 0x06, 0x00, 0x00, 0x00, 0x28, 0x02, 0x00, 0x00, 0xe8, 0x01, 0x00, 0x00, 0xb4, 0x01, 0x00, 0x00, 0x70, 0x01, 0x00, 0x00, 0xbc, 0x00, 0x00, 0x00, 0x04, 0x00, 0x00, 0x00, 0x5a, 0xff, 0xff, 0xff, 0x10, 0x00, 0x00, 0x00, 0x48, 0x00, 0x00, 0x00, 0x00, 0x00, 0x00, 0x07, 0x80, 0x00, 0x00, 0x00, 0x4c, 0xff, 0xff, 0xff, 0x10, 0x00, 0x00, 0x00, 0x1c, 0x00, 0x00, 0x00, 0x20, 0x00, 0x00, 0x00, 0x24, 0x00, 0x00, 0x00, 0x01, 0x00, 0x00, 0x00, 0x00, 0x00, 0x00, 0x00, 0x00, 0x00, 0x00, 0x00, 0x00, 0x00, 0x00, 0x00, 0x01, 0x00, 0x00, 0x00, 0xa2, 0x1f, 0xaa, 0x3b, 0x01, 0x00, 0x00, 0x00, 0x4e, 0x1e, 0x2a, 0x43, 0x01, 0x00, 0x00, 0x00, 0x22, 0xb4, 0x6b, 0xc1, 0x3a, 0x00, 0x00, 0x00, 0x73, 0x74, 0x72, 0x65, 0x61, 0x6d, 0x61, 0x62, 0x6c, 0x65, 0x5f, 0x6d, 0x6f, 0x64, 0x65, 0x6c, 0x5f, 0x31, 0x30, 0x2f, 0x75, 0x6e, 0x65, 0x74, 0x5f, 0x30, 0x2f, 0x62, 0x61, 0x73, 0x65, 0x5f, 0x63, 0x6f, 0x6e, 0x76, 0x5f, 0x6c, 0x61, 0x73, 0x74, 0x2f, 0x66, 0x72, 0x65, 0x71, 0x5f, 0x64, 0x69, 0x6d, 0x5f, 0x70, 0x61, 0x64, 0x2f, 0x50, 0x61, 0x64, 0x00, 0x00, 0x04, 0x00, 0x00, 0x00, 0x01, 0x00, 0x00, 0x00, 0x02, 0x00, 0x00, 0x00, 0xa6, 0x00, 0x00, 0x00, 0x08, 0x00, 0x00, 0x00, 0x00, 0x00, 0x0e, 0x00, 0x14, 0x00, 0x10, 0x00, 0x0f, 0x00, 0x00, 0x00, 0x08, 0x00, 0x04, 0x00, 0x0e, 0x00, 0x00, 0x00, 0x1c, 0x00, 0x00, 0x00, 0x50, 0x00, 0x00, 0x00, 0x00, 0x00, 0x00, 0x07, 0x8c, 0x00, 0x00, 0x00, 0x0c, 0x00, 0x14, 0x00, 0x10, 0x00, 0x0c, 0x00, 0x08, 0x00, 0x04, 0x00, 0x0c, 0x00, 0x00, 0x00, 0x10, 0x00, 0x00, 0x00, 0x18, 0x00, 0x00, 0x00, 0x1c, 0x00, 0x00, 0x00, 0x20, 0x00, 0x00, 0x00, 0x01, 0x00, 0x00, 0x00, 0x00, 0x00, 0x00, 0x00, 0x00, 0x00, 0x00, 0x00, 0x01, 0x00, 0x00, 0x00, 0xa2, 0x1f, 0xaa, 0x3b, 0x01, 0x00, 0x00, 0x00, 0x4e, 0x1e, 0x2a, 0x43, 0x01, 0x00, 0x00, 0x00, 0x22, 0xb4, 0x6b, 0xc1, 0x3e, 0x00, 0x00, 0x00, 0x73, 0x74, 0x72, 0x65, 0x61, 0x6d, 0x61, 0x62, 0x6c, 0x65, 0x5f, 0x6d, 0x6f, 0x64, 0x65, 0x6c, 0x5f, 0x31, 0x30, 0x2f, 0x75, 0x6e, 0x65, 0x74, 0x5f, 0x30, 0x2f, 0x62, 0x61, 0x73, 0x65, 0x5f, 0x63, 0x6f, 0x6e, 0x76, 0x5f, 0x6c, 0x61, 0x73, 0x74, 0x2f, 0x61, 0x63, 0x74, 0x69, 0x76, 0x61, 0x74, 0x69, 0x6f, 0x6e, 0x2f, 0x4c, 0x65, 0x61, 0x6b, 0x79, 0x52, 0x65, 0x6c, 0x75, 0x00, 0x00, 0x04, 0x00, 0x00, 0x00, 0x01, 0x00, 0x00, 0x00, 0x02, 0x00, 0x00, 0x00, 0xa0, 0x00, 0x00, 0x00, 0x08, 0x00, 0x00, 0x00, 0xcc, 0xff, 0xff, 0xff, 0x0c, 0x00, 0x00, 0x00, 0x00, 0x00, 0x00, 0x03, 0x20, 0x00, 0x00, 0x00, 0x15, 0x00, 0x00, 0x00, 0x5f, 0x73, 0x70, 0x6c, 0x69, 0x74, 0x5f, 0x31, 0x5f, 0x73, 0x63, 0x72, 0x61, 0x74, 0x63, 0x68, 0x5f, 0x66, 0x61, 0x73, 0x74, 0x00, 0x00, 0x00, 0x01, 0x00, 0x00, 0x00, 0x00, 0x00, 0x00, 0x00, 0x0c, 0x00, 0x10, 0x00, 0x0c, 0x00, 0x0b, 0x00, 0x00, 0x00, 0x04, 0x00, 0x0c, 0x00, 0x00, 0x00, 0x0c, 0x00, 0x00, 0x00, 0x00, 0x00, 0x00, 0x03, 0x1c, 0x00, 0x00, 0x00, 0x10, 0x00, 0x00, 0x00, 0x5f, 0x73, 0x70, 0x6c, 0x69, 0x74, 0x5f, 0x31, 0x5f, 0x73, 0x63, 0x72, 0x61, 0x74, 0x63, 0x68, 0x00, 0x00, 0x00, 0x00, 0x01, 0x00, 0x00, 0x00, 0xc0, 0x28, 0x00, 0x00, 0xd0, 0xff, 0xff, 0xff, 0x10, 0x00, 0x00, 0x00, 0x02, 0x00, 0x00, 0x00, 0x00, 0x00, 0x00, 0x03, 0x18, 0x00, 0x00, 0x00, 0x0e, 0x00, 0x00, 0x00, 0x5f, 0x73, 0x70, 0x6c, 0x69, 0x74, 0x5f, 0x31, 0x5f, 0x66, 0x6c, 0x61, 0x73, 0x68, 0x00, 0x00, 0x01, 0x00, 0x00, 0x00, 0x60, 0x00, 0x00, 0x00, 0x0c, 0x00, 0x14, 0x00, 0x10, 0x00, 0x0f, 0x00, 0x08, 0x00, 0x04, 0x00, 0x0c, 0x00, 0x00, 0x00, 0x10, 0x00, 0x00, 0x00, 0x01, 0x00, 0x00, 0x00, 0x00, 0x00, 0x00, 0x03, 0x20, 0x00, 0x00, 0x00, 0x17, 0x00, 0x00, 0x00, 0x5f, 0x73, 0x70, 0x6c, 0x69, 0x74, 0x5f, 0x31, 0x5f, 0x63, 0x6f, 0x6d, 0x6d, 0x61, 0x6e, 0x64, 0x5f, 0x73, 0x74, 0x72, 0x65, 0x61, 0x6d, 0x00, 0x01, 0x00, 0x00, 0x00, 0x60, 0x01, 0x00, 0x00, 0x00, 0x00, 0x00, 0x00, 0x00, 0x00, 0x00, 0x00, 0x15, 0x00, 0x00, 0x00, 0x56, 0x65, 0x6c, 0x61, 0x20, 0x33, 0x2e, 0x31, 0x32, 0x2e, 0x30, 0x20, 0x4f, 0x70, 0x74, 0x69, 0x6d, 0x69, 0x73, 0x65, 0x64, 0x00, 0x00, 0x00, 0x01, 0x00, 0x00, 0x00, 0x10, 0x00, 0x00, 0x00, 0x0c, 0x00, 0x10, 0x00, 0x0f, 0x00, 0x04, 0x00, 0x00, 0x00, 0x08, 0x00, 0x0c, 0x00, 0x00, 0x00, 0x0c, 0x00, 0x00, 0x00, 0x20, 0x00, 0x00, 0x00, 0x00, 0x00, 0x00, 0x20, 0x07, 0x00, 0x00, 0x00, 0x65, 0x74, 0x68, 0x6f, 0x73, 0x2d, 0x75, 0x00, 0x00, 0x00, 0x00, 0x00, 0x00, 0x00, 0x00, 0x00, 0x00, 0x00, 0x00, 0x00, 0x00, 0x00, 0x00, 0x00, 0x00, 0x00, 0x00, 0x00, 0x00, 0x00, 0x00, 0x00, 0x00, 0x00, 0x00, 0x00, 0x00, 0x00, 0x00, 0x00, 0x00, 0x00, 0x00, 0x00, 0x00, 0x00, 0x00, 0x00, 0x00, 0x00, 0x00, 0x00, 0x00, 0x00, 0x00, 0x00, 0x00, 0x00, 0x00, 0x00, 0x00, 0x00, 0x00, 0x00, 0x00, 0x00, 0x00, 0x00, 0x00, 0x00, 0x00, 0x00, 0x00, 0x00, 0x00, 0x00, 0x00, 0x00, 0x00, 0x00, 0x00, 0x00, 0x00, 0x00, 0x00, 0x00, 0x00, 0x00, 0x00, 0x00, 0x00, 0x00, 0x00, 0x00, 0x00, 0x00, 0x00, 0x00, 0x00, 0x00, 0x00, 0x00, 0x00, 0x00, 0x00, 0x00, 0x00, 0x00, 0x00, 0x00, 0x00, 0x00, 0x00, 0x00, 0x00, 0x00, 0x00, 0x00, 0x00, 0x00, 0x00, 0x00, 0x00, 0x00, 0x00, 0x00, 0x00, 0x00, 0x00, 0x00, 0x00, 0x00, 0x00, 0x00, 0x00, 0x00, 0x00, 0x00, 0x00, 0x00, 0x00, 0x00, 0x00, 0x00, 0x00, 0x00, 0x00, 0x00, 0x00, 0x00, 0x00, 0x00, 0x00, 0x00, 0x00, 0x00, 0x00, 0x00, 0x00, 0x00, 0x00, 0x00, 0x00, 0x00, 0x00, 0x00, 0x00, 0x00, 0x00, 0x00, 0x00, 0x00, 0x00, 0x00, 0x00, 0x00, 0x00, 0x00, 0x00, 0x00, 0x00, 0x00, 0x00, 0x00, 0x00, 0x00, 0x00, 0x00, 0x00, 0x00, 0x00, 0x00, 0x00, 0x00, 0x00, 0x00, 0x00, 0x00, 0x00, 0x00, 0x00, 0x00, 0x00, 0x00, 0x00, 0x00, 0x00, 0x00, 0x00, 0x00, 0x00, 0x00, 0x00, 0x00, 0x00, 0x00, 0x00, 0x00, 0x00, 0x00, 0x00, 0x00, 0x00, 0x00, 0x00, 0x00, 0x00, 0x00, 0x00, 0x00, 0x00, 0x00, 0x00, 0x00, 0x00, 0x00, 0x00, 0x00, 0x00, 0x00, 0x00, 0x00, 0x00, 0x00, 0x00, 0x00, 0x00, 0x00, 0x00, 0x00, 0x00, 0x00, 0x00, 0x00, 0x00, 0x00, 0x00, 0x00, 0x00, 0x00, 0x00, 0x00, 0x00, 0x00, 0x00, 0x00, 0x00, 0x00, 0x00, 0x00, 0x00, 0x00, 0x00, 0x00, 0x00, 0x00, 0x00, 0x00, 0x00, 0x00};
unsigned char op_34model_head_data[1472] = {
    0x24, 0x00, 0x00, 0x00, 0x54, 0x46, 0x4c, 0x33, 0x00, 0x00, 0x00, 0x00,
    0x00, 0x00, 0x00, 0x00, 0x00, 0x00, 0x12, 0x00, 0x1c, 0x00, 0x18, 0x00,
    0x14, 0x00, 0x10, 0x00, 0x0c, 0x00, 0x08, 0x00, 0x00, 0x00, 0x04, 0x00,
    0x12, 0x00, 0x00, 0x00, 0x18, 0x00, 0x00, 0x00, 0x70, 0x00, 0x00, 0x00,
    0x44, 0x05, 0x00, 0x00, 0x34, 0x02, 0x00, 0x00, 0x58, 0x05, 0x00, 0x00,
    0x03, 0x00, 0x00, 0x00, 0x02, 0x00, 0x00, 0x00, 0x38, 0x00, 0x00, 0x00,
    0x04, 0x00, 0x00, 0x00, 0xd8, 0xff, 0xff, 0xff, 0x04, 0x00, 0x00, 0x00,
    0x04, 0x00, 0x00, 0x00, 0x17, 0x00, 0x00, 0x00, 0x4f, 0x66, 0x66, 0x6c,
    0x69, 0x6e, 0x65, 0x4d, 0x65, 0x6d, 0x6f, 0x72, 0x79, 0x41, 0x6c, 0x6c,
    0x6f, 0x63, 0x61, 0x74, 0x69, 0x6f, 0x6e, 0x00, 0x08, 0x00, 0x0c, 0x00,
    0x08, 0x00, 0x04, 0x00, 0x08, 0x00, 0x00, 0x00, 0x03, 0x00, 0x00, 0x00,
    0x04, 0x00, 0x00, 0x00, 0x0c, 0x00, 0x00, 0x00, 0x76, 0x65, 0x6c, 0x61,
    0x5f, 0x76, 0x65, 0x72, 0x73, 0x69, 0x6f, 0x6e, 0x00, 0x00, 0x00, 0x00,
    0x05, 0x00, 0x00, 0x00, 0xc4, 0x01, 0x00, 0x00, 0x80, 0x00, 0x00, 0x00,
    0x5c, 0x00, 0x00, 0x00, 0x38, 0x00, 0x00, 0x00, 0x04, 0x00, 0x00, 0x00,
    0x96, 0xff, 0xff, 0xff, 0x04, 0x00, 0x00, 0x00, 0x24, 0x00, 0x00, 0x00,
    0x00, 0x00, 0x00, 0x00, 0x01, 0x00, 0x00, 0x00, 0x06, 0x00, 0x00, 0x00,
    0xff, 0xff, 0xff, 0xff, 0xff, 0xff, 0xff, 0xff, 0x00, 0x00, 0x00, 0x00,
    0x00, 0x00, 0x00, 0x00, 0x00, 0x00, 0x00, 0x00, 0x00, 0x53, 0x00, 0x00,
    0xc6, 0xff, 0xff, 0xff, 0x04, 0x00, 0x00, 0x00, 0x06, 0x00, 0x00, 0x00,
    0x33, 0x2e, 0x31, 0x32, 0x2e, 0x30, 0x00, 0x00, 0x00, 0x00, 0x00, 0x00,
    0x00, 0x00, 0x00, 0x00, 0x00, 0x00, 0x00, 0x00, 0xe6, 0xff, 0xff, 0xff,
    0x04, 0x00, 0x00, 0x00, 0x00, 0x00, 0x00, 0x00, 0x00, 0x00, 0x00, 0x00,
    0x00, 0x00, 0x00, 0x00, 0x00, 0x00, 0x00, 0x00, 0x00, 0x00, 0x06, 0x00,
    0x08, 0x00, 0x04, 0x00, 0x06, 0x00, 0x00, 0x00, 0x04, 0x00, 0x00, 0x00,
    0x2c, 0x01, 0x00, 0x00, 0x43, 0x4f, 0x50, 0x31, 0x01, 0x00, 0x10, 0x00,
    0x08, 0x30, 0x00, 0x10, 0x00, 0x00, 0x06, 0x10, 0x05, 0x00, 0x00, 0x00,
    0x05, 0x00, 0x00, 0x00, 0x05, 0x00, 0x00, 0x00, 0x02, 0x00, 0x43, 0x00,
    0x23, 0x01, 0x00, 0x00, 0x0f, 0x01, 0x01, 0x00, 0x00, 0x40, 0x00, 0x00,
    0xc0, 0x14, 0x00, 0x00, 0x01, 0x40, 0x00, 0x00, 0x00, 0x00, 0x00, 0x00,
    0x02, 0x40, 0x00, 0x00, 0x00, 0x00, 0x00, 0x00, 0x03, 0x40, 0x00, 0x00,
    0x00, 0x00, 0x00, 0x00, 0x0b, 0x01, 0x05, 0x00, 0x0c, 0x01, 0x05, 0x00,
    0x0a, 0x01, 0xa5, 0x00, 0x04, 0x01, 0x07, 0x00, 0x06, 0x40, 0x00, 0x00,
    0x02, 0x00, 0x00, 0x00, 0x05, 0x40, 0x00, 0x00, 0x60, 0x0a, 0x00, 0x00,
    0x04, 0x40, 0x00, 0x00, 0x10, 0x00, 0x00, 0x00, 0x09, 0x01, 0x00, 0x00,
    0x05, 0x01, 0x05, 0x00, 0x07, 0x01, 0x00, 0x00, 0x00, 0x01, 0x00, 0x00,
    0x01, 0x01, 0x00, 0x00, 0x03, 0x01, 0x00, 0x00, 0x02, 0x01, 0x00, 0x00,
    0x1f, 0x01, 0x01, 0x00, 0x10, 0x40, 0x00, 0x00, 0x00, 0x53, 0x00, 0x00,
    0x11, 0x40, 0x00, 0x00, 0x00, 0x00, 0x00, 0x00, 0x12, 0x40, 0x00, 0x00,
    0x00, 0x00, 0x00, 0x00, 0x13, 0x40, 0x00, 0x00, 0x00, 0x00, 0x00, 0x00,
    0x1b, 0x01, 0x05, 0x00, 0x1c, 0x01, 0x05, 0x00, 0x1a, 0x01, 0xa5, 0x00,
    0x12, 0x01, 0x05, 0x00, 0x11, 0x01, 0xa5, 0x00, 0x13, 0x01, 0x07, 0x00,
    0x16, 0x40, 0x00, 0x00, 0x02, 0x00, 0x00, 0x00, 0x15, 0x40, 0x00, 0x00,
    0x60, 0x0a, 0x00, 0x00, 0x14, 0x40, 0x00, 0x00, 0x10, 0x00, 0x00, 0x00,
    0x18, 0x01, 0x00, 0x00, 0x14, 0x01, 0x03, 0x01, 0x21, 0x01, 0x00, 0x00,
    0x20, 0x01, 0x00, 0x00, 0x22, 0x01, 0x00, 0x00, 0x25, 0x01, 0x00, 0x00,
    0x26, 0x01, 0x00, 0x80, 0x27, 0x01, 0xff, 0x7f, 0x16, 0x01, 0x01, 0x00,
    0x15, 0x01, 0x11, 0x00, 0x17, 0x01, 0x07, 0x00, 0x0d, 0x01, 0x0a, 0x00,
    0x2d, 0x01, 0x1e, 0x00, 0x24, 0x01, 0x00, 0x00, 0x24, 0x40, 0x1f, 0x00,
    0x01, 0x00, 0x00, 0x80, 0x2f, 0x01, 0x00, 0x00, 0x05, 0x00, 0x01, 0x00,
    0x00, 0x00, 0xff, 0xff, 0x00, 0x00, 0x00, 0x00, 0x04, 0x00, 0x04, 0x00,
    0x04, 0x00, 0x00, 0x00, 0x01, 0x00, 0x00, 0x00, 0x14, 0x00, 0x00, 0x00,
    0x00, 0x00, 0x0e, 0x00, 0x18, 0x00, 0x14, 0x00, 0x10, 0x00, 0x0c, 0x00,
    0x08, 0x00, 0x04, 0x00, 0x0e, 0x00, 0x00, 0x00, 0xe8, 0x02, 0x00, 0x00,
    0x10, 0x00, 0x00, 0x00, 0x74, 0x00, 0x00, 0x00, 0x78, 0x00, 0x00, 0x00,
    0x7c, 0x00, 0x00, 0x00, 0x01, 0x00, 0x00, 0x00, 0x1c, 0x00, 0x00, 0x00,
    0x00, 0x00, 0x16, 0x00, 0x18, 0x00, 0x00, 0x00, 0x14, 0x00, 0x10, 0x00,
    0x00, 0x00, 0x00, 0x00, 0x08, 0x00, 0x00, 0x00, 0x04, 0x00, 0x0c, 0x00,
    0x16, 0x00, 0x00, 0x00, 0x14, 0x00, 0x00, 0x00, 0x14, 0x00, 0x00, 0x00,
    0x18, 0x00, 0x00, 0x00, 0x18, 0x00, 0x00, 0x00, 0x1c, 0x00, 0x00, 0x00,
    0x00, 0x00, 0x00, 0x00, 0x03, 0x00, 0x00, 0x00, 0x01, 0x04, 0x01, 0x00,
    0x00, 0x00, 0x00, 0x00, 0x01, 0x00, 0x00, 0x00, 0x05, 0x00, 0x00, 0x00,
    0x05, 0x00, 0x00, 0x00, 0x00, 0x00, 0x00, 0x00, 0x01, 0x00, 0x00, 0x00,
    0x02, 0x00, 0x00, 0x00, 0x03, 0x00, 0x00, 0x00, 0x04, 0x00, 0x00, 0x00,
    0x01, 0x00, 0x00, 0x00, 0x05, 0x00, 0x00, 0x00, 0x01, 0x00, 0x00, 0x00,
    0x04, 0x00, 0x00, 0x00, 0x06, 0x00, 0x00, 0x00, 0x20, 0x02, 0x00, 0x00,
    0xe0, 0x01, 0x00, 0x00, 0xac, 0x01, 0x00, 0x00, 0x68, 0x01, 0x00, 0x00,
    0xbc, 0x00, 0x00, 0x00, 0x04, 0x00, 0x00, 0x00, 0x5a, 0xff, 0xff, 0xff,
    0x10, 0x00, 0x00, 0x00, 0x44, 0x00, 0x00, 0x00, 0x00, 0x00, 0x00, 0x07,
    0x80, 0x00, 0x00, 0x00, 0x4c, 0xff, 0xff, 0xff, 0x10, 0x00, 0x00, 0x00,
    0x18, 0x00, 0x00, 0x00, 0x1c, 0x00, 0x00, 0x00, 0x20, 0x00, 0x00, 0x00,
    0x01, 0x00, 0x00, 0x00, 0x00, 0x00, 0x00, 0x00, 0x00, 0x00, 0x00, 0x00,
    0x01, 0x00, 0x00, 0x00, 0xa2, 0x1f, 0xaa, 0x3b, 0x01, 0x00, 0x00, 0x00,
    0x4e, 0x1e, 0x2a, 0x43, 0x01, 0x00, 0x00, 0x00, 0x22, 0xb4, 0x6b, 0xc1,
    0x3d, 0x00, 0x00, 0x00, 0x73, 0x74, 0x72, 0x65, 0x61, 0x6d, 0x61, 0x62,
    0x6c, 0x65, 0x5f, 0x6d, 0x6f, 0x64, 0x65, 0x6c, 0x5f, 0x31, 0x30, 0x2f,
    0x75, 0x6e, 0x65, 0x74, 0x5f, 0x30, 0x2f, 0x62, 0x61, 0x73, 0x65, 0x5f,
    0x63, 0x6f, 0x6e, 0x76, 0x5f, 0x6c, 0x61, 0x73, 0x74, 0x2f, 0x63, 0x6f,
    0x6e, 0x76, 0x2f, 0x73, 0x74, 0x72, 0x69, 0x64, 0x65, 0x64, 0x5f, 0x73,
    0x6c, 0x69, 0x63, 0x65, 0x32, 0x00, 0x00, 0x00, 0x04, 0x00, 0x00, 0x00,
    0x01, 0x00, 0x00, 0x00, 0x06, 0x00, 0x00, 0x00, 0xa6, 0x00, 0x00, 0x00,
    0x08, 0x00, 0x00, 0x00, 0x00, 0x00, 0x0e, 0x00, 0x14, 0x00, 0x10, 0x00,
    0x0f, 0x00, 0x00, 0x00, 0x08, 0x00, 0x04, 0x00, 0x0e, 0x00, 0x00, 0x00,
    0x1c, 0x00, 0x00, 0x00, 0x50, 0x00, 0x00, 0x00, 0x00, 0x00, 0x00, 0x07,
    0x84, 0x00, 0x00, 0x00, 0x0c, 0x00, 0x14, 0x00, 0x10, 0x00, 0x0c, 0x00,
    0x08, 0x00, 0x04, 0x00, 0x0c, 0x00, 0x00, 0x00, 0x10, 0x00, 0x00, 0x00,
    0x18, 0x00, 0x00, 0x00, 0x1c, 0x00, 0x00, 0x00, 0x20, 0x00, 0x00, 0x00,
    0x01, 0x00, 0x00, 0x00, 0x00, 0x00, 0x00, 0x00, 0x00, 0x00, 0x00, 0x00,
    0x01, 0x00, 0x00, 0x00, 0xa2, 0x1f, 0xaa, 0x3b, 0x01, 0x00, 0x00, 0x00,
    0x4e, 0x1e, 0x2a, 0x43, 0x01, 0x00, 0x00, 0x00, 0x22, 0xb4, 0x6b, 0xc1,
    0x35, 0x00, 0x00, 0x00, 0x73, 0x74, 0x72, 0x65, 0x61, 0x6d, 0x61, 0x62,
    0x6c, 0x65, 0x5f, 0x6d, 0x6f, 0x64, 0x65, 0x6c, 0x5f, 0x31, 0x30, 0x2f,
    0x75, 0x6e, 0x65, 0x74, 0x5f, 0x30, 0x2f, 0x62, 0x61, 0x73, 0x65, 0x5f,
    0x63, 0x6f, 0x6e, 0x76, 0x5f, 0x6c, 0x61, 0x73, 0x74, 0x2f, 0x63, 0x6f,
    0x6e, 0x76, 0x2f, 0x63, 0x6f, 0x6e, 0x63, 0x61, 0x74, 0x00, 0x00, 0x00,
    0x04, 0x00, 0x00, 0x00, 0x01, 0x00, 0x00, 0x00, 0x08, 0x00, 0x00, 0x00,
    0xa6, 0x00, 0x00, 0x00, 0x08, 0x00, 0x00, 0x00, 0xcc, 0xff, 0xff, 0xff,
    0x0c, 0x00, 0x00, 0x00, 0x00, 0x00, 0x00, 0x03, 0x20, 0x00, 0x00, 0x00,
    0x15, 0x00, 0x00, 0x00, 0x5f, 0x73, 0x70, 0x6c, 0x69, 0x74, 0x5f, 0x31,
    0x5f, 0x73, 0x63, 0x72, 0x61, 0x74, 0x63, 0x68, 0x5f, 0x66, 0x61, 0x73,
    0x74, 0x00, 0x00, 0x00, 0x01, 0x00, 0x00, 0x00, 0x00, 0x00, 0x00, 0x00,
    0x0c, 0x00, 0x10, 0x00, 0x0c, 0x00, 0x0b, 0x00, 0x00, 0x00, 0x04, 0x00,
    0x0c, 0x00, 0x00, 0x00, 0x0c, 0x00, 0x00, 0x00, 0x00, 0x00, 0x00, 0x03,
    0x1c, 0x00, 0x00, 0x00, 0x10, 0x00, 0x00, 0x00, 0x5f, 0x73, 0x70, 0x6c,
    0x69, 0x74, 0x5f, 0x31, 0x5f, 0x73, 0x63, 0x72, 0x61, 0x74, 0x63, 0x68,
    0x00, 0x00, 0x00, 0x00, 0x01, 0x00, 0x00, 0x00, 0x40, 0x91, 0x00, 0x00,
    0xd0, 0xff, 0xff, 0xff, 0x10, 0x00, 0x00, 0x00, 0x02, 0x00, 0x00, 0x00,
    0x00, 0x00, 0x00, 0x03, 0x18, 0x00, 0x00, 0x00, 0x0e, 0x00, 0x00, 0x00,
    0x5f, 0x73, 0x70, 0x6c, 0x69, 0x74, 0x5f, 0x31, 0x5f, 0x66, 0x6c, 0x61,
    0x73, 0x68, 0x00, 0x00, 0x01, 0x00, 0x00, 0x00, 0x00, 0x00, 0x00, 0x00,
    0x0c, 0x00, 0x14, 0x00, 0x10, 0x00, 0x0f, 0x00, 0x08, 0x00, 0x04, 0x00,
    0x0c, 0x00, 0x00, 0x00, 0x10, 0x00, 0x00, 0x00, 0x01, 0x00, 0x00, 0x00,
    0x00, 0x00, 0x00, 0x03, 0x20, 0x00, 0x00, 0x00, 0x17, 0x00, 0x00, 0x00,
    0x5f, 0x73, 0x70, 0x6c, 0x69, 0x74, 0x5f, 0x31, 0x5f, 0x63, 0x6f, 0x6d,
    0x6d, 0x61, 0x6e, 0x64, 0x5f, 0x73, 0x74, 0x72, 0x65, 0x61, 0x6d, 0x00,
    0x01, 0x00, 0x00, 0x00, 0x2c, 0x01, 0x00, 0x00, 0x00, 0x00, 0x00, 0x00,
    0x00, 0x00, 0x00, 0x00, 0x15, 0x00, 0x00, 0x00, 0x56, 0x65, 0x6c, 0x61,
    0x20, 0x33, 0x2e, 0x31, 0x32, 0x2e, 0x30, 0x20, 0x4f, 0x70, 0x74, 0x69,
    0x6d, 0x69, 0x73, 0x65, 0x64, 0x00, 0x00, 0x00, 0x01, 0x00, 0x00, 0x00,
    0x10, 0x00, 0x00, 0x00, 0x0c, 0x00, 0x10, 0x00, 0x0f, 0x00, 0x04, 0x00,
    0x00, 0x00, 0x08, 0x00, 0x0c, 0x00, 0x00, 0x00, 0x0c, 0x00, 0x00, 0x00,
    0x20, 0x00, 0x00, 0x00, 0x00, 0x00, 0x00, 0x20, 0x07, 0x00, 0x00, 0x00,
    0x65, 0x74, 0x68, 0x6f, 0x73, 0x2d, 0x75, 0x00
  };
unsigned char op_40_data[1472] = {0};
unsigned char op_37_input_record_data[1*8*166*8*2] = {0}; 
unsigned char op_31_data[1472] = {0};
#ifdef __cplusplus
extern "C" {
#endif

void replay_inference(void);

#ifdef __cplusplus
}
#endif
#ifdef __cplusplus
extern "C" {
#endif

void replay_handle_interrupt(void);

#ifdef __cplusplus
}
#endif
#ifdef __cplusplus
extern "C" {
#endif

void replay_initialization_verification(void);

#ifdef __cplusplus
}
#endif
#endif  // REPLAY_TEMPLATES_H